
#ifndef SINE_MODEL_H
#define SINE_MODEL_H

const unsigned int sine_model_len = 4316;

const unsigned char sine_model[4316] = {
    0x1c, 0x00, 0x00, 0x00, 0x54, 0x46, 0x4c, 0x33, 0x14,
    0x00, 0x20, 0x00, 0x1c, 0x00, 0x18, 0x00, 0x14, 0x00,
    0x10, 0x00, 0x0c, 0x00, 0x00, 0x00, 0x08, 0x00, 0x04,
    0x00, 0x14, 0x00, 0x00, 0x00, 0x1c, 0x00, 0x00, 0x00,
    0x98, 0x00, 0x00, 0x00, 0xf0, 0x00, 0x00, 0x00,
    0x94, 0x0b, 0x00, 0x00, 0xa4, 0x0b, 0x00, 0x00,
    0x88, 0x10, 0x00, 0x00, 0x03, 0x00, 0x00, 0x00,
    0x01, 0x00, 0x00, 0x00, 0x10, 0x00, 0x00, 0x00,
    0x00, 0x00, 0x0a, 0x00, 0x10, 0x00, 0x0c, 0x00,
    0x08, 0x00, 0x04, 0x00, 0x0a, 0x00, 0x00, 0x00,
    0x0c, 0x00, 0x00, 0x00, 0x1c, 0x00, 0x00, 0x00,
    0x3c, 0x00, 0x00, 0x00, 0x0f, 0x00, 0x00, 0x00,
    0x73, 0x65, 0x72, 0x76, 0x69, 0x6e, 0x67, 0x5f,
    0x64, 0x65, 0x66, 0x61, 0x75, 0x6c, 0x74, 0x00,
    0x01, 0x00, 0x00, 0x00, 0x04, 0x00, 0x00, 0x00,
    0x90, 0xff, 0xff, 0xff, 0x09, 0x00, 0x00, 0x00,
    0x04, 0x00, 0x00, 0x00, 0x08, 0x00, 0x00, 0x00,
    0x6f, 0x75, 0x74, 0x70, 0x75, 0x74, 0x5f, 0x30,
    0x00, 0x00, 0x00, 0x00, 0x01, 0x00, 0x00, 0x00,
    0x04, 0x00, 0x00, 0x00, 0x3a, 0xf5, 0xff, 0xff,
    0x04, 0x00, 0x00, 0x00, 0x0c, 0x00, 0x00, 0x00,
    0x6b, 0x65, 0x72, 0x61, 0x73, 0x5f, 0x74, 0x65,
    0x6e, 0x73, 0x6f, 0x72, 0x00, 0x00, 0x00, 0x00,
    0x02, 0x00, 0x00, 0x00, 0x34, 0x00, 0x00, 0x00,
    0x04, 0x00, 0x00, 0x00, 0xdc, 0xff, 0xff, 0xff,
    0x0c, 0x00, 0x00, 0x00, 0x04, 0x00, 0x00, 0x00,
    0x13, 0x00, 0x00, 0x00, 0x43, 0x4f, 0x4e, 0x56,
    0x45, 0x52, 0x53, 0x49, 0x4f, 0x4e, 0x5f, 0x4d,
    0x45, 0x54, 0x41, 0x44, 0x41, 0x54, 0x41, 0x00,
    0x08, 0x00, 0x0c, 0x00, 0x08, 0x00, 0x04, 0x00,
    0x08, 0x00, 0x00, 0x00, 0x0b, 0x00, 0x00, 0x00,
    0x04, 0x00, 0x00, 0x00, 0x13, 0x00, 0x00, 0x00,
    0x6d, 0x69, 0x6e, 0x5f, 0x72, 0x75, 0x6e, 0x74,
    0x69, 0x6d, 0x65, 0x5f, 0x76, 0x65, 0x72, 0x73,
    0x69, 0x6f, 0x6e, 0x00, 0x0d, 0x00, 0x00, 0x00,
    0xa0, 0x0a, 0x00, 0x00, 0x98, 0x0a, 0x00, 0x00,
    0x48, 0x0a, 0x00, 0x00, 0x2c, 0x0a, 0x00, 0x00,
    0xdc, 0x09, 0x00, 0x00, 0xcc, 0x01, 0x00, 0x00,
    0x3c, 0x01, 0x00, 0x00, 0xac, 0x00, 0x00, 0x00,
    0xa4, 0x00, 0x00, 0x00, 0x9c, 0x00, 0x00, 0x00,
    0x94, 0x00, 0x00, 0x00, 0x74, 0x00, 0x00, 0x00,
    0x04, 0x00, 0x00, 0x00, 0xea, 0xf5, 0xff, 0xff,
    0x04, 0x00, 0x00, 0x00, 0x60, 0x00, 0x00, 0x00,
    0x0c, 0x00, 0x00, 0x00, 0x08, 0x00, 0x0e, 0x00,
    0x08, 0x00, 0x04, 0x00, 0x08, 0x00, 0x00, 0x00,
    0x10, 0x00, 0x00, 0x00, 0x28, 0x00, 0x00, 0x00,
    0x00, 0x00, 0x06, 0x00, 0x08, 0x00, 0x04, 0x00,
    0x06, 0x00, 0x00, 0x00, 0x04, 0x00, 0x00, 0x00,
    0x01, 0x00, 0x00, 0x00, 0xea, 0x03, 0x00, 0x00,
    0x0c, 0x00, 0x18, 0x00, 0x14, 0x00, 0x10, 0x00,
    0x0c, 0x00, 0x04, 0x00, 0x0c, 0x00, 0x00, 0x00,
    0x3f, 0x40, 0x6c, 0x11, 0x49, 0x27, 0x92, 0x10,
    0x02, 0x00, 0x00, 0x00, 0x02, 0x00, 0x00, 0x00,
    0x04, 0x00, 0x00, 0x00, 0x06, 0x00, 0x00, 0x00,
    0x32, 0x2e, 0x32, 0x30, 0x2e, 0x30, 0x00, 0x00,
    0x56, 0xf6, 0xff, 0xff, 0x04, 0x00, 0x00, 0x00,
    0x10, 0x00, 0x00, 0x00, 0x31, 0x2e, 0x35, 0x2e,
    0x30, 0x00, 0x00, 0x00, 0x00, 0x00, 0x00, 0x00,
    0x00, 0x00, 0x00, 0x00, 0x54, 0xf1, 0xff, 0xff,
    0x58, 0xf1, 0xff, 0xff, 0x5c, 0xf1, 0xff, 0xff,
    0x7e, 0xf6, 0xff, 0xff, 0x04, 0x00, 0x00, 0x00,
    0x80, 0x00, 0x00, 0x00, 0x08, 0x2e, 0xf4, 0xbd,
    0x00, 0x00, 0x00, 0x00, 0x3b, 0xe6, 0x69, 0xbd,
    0xc7, 0xe7, 0x5f, 0x3e, 0x53, 0x09, 0x2a, 0xbf,
    0x00, 0x00, 0x00, 0x00, 0x5c, 0x8e, 0x7b, 0xbd,
    0x00, 0x00, 0x00, 0x00, 0x00, 0x00, 0x00, 0x00,
    0x9b, 0x60, 0x13, 0xbf, 0x59, 0xf5, 0x9c, 0x3e,
    0x2e, 0x37, 0xa9, 0x3e, 0x00, 0x00, 0x00, 0x00,
    0x00, 0x00, 0x00, 0x00, 0x00, 0x00, 0x00, 0x00,
    0x00, 0x00, 0x00, 0x00, 0x00, 0x00, 0x00, 0x00,
    0x50, 0x70, 0x5c, 0xbf, 0x0a, 0x00, 0xf0, 0x3e,
    0x4e, 0x6c, 0xf0, 0x3e, 0x85, 0xdd, 0xe1, 0xbe,
    0xc4, 0x3d, 0xf9, 0xbe, 0x78, 0xb0, 0xd9, 0x3e,
    0x00, 0x00, 0x00, 0x00, 0xc1, 0xf6, 0xe8, 0xbe,
    0x00, 0x00, 0x00, 0x00, 0x00, 0x00, 0x00, 0x00,
    0xf1, 0x51, 0x18, 0xbe, 0x05, 0xb7, 0x62, 0xbd,
    0x82, 0xc0, 0x8d, 0xbe, 0x00, 0x00, 0x00, 0x00,
    0x00, 0x00, 0x00, 0x00, 0x0a, 0xf7, 0xff, 0xff,
    0x04, 0x00, 0x00, 0x00, 0x80, 0x00, 0x00, 0x00,
    0x9a, 0x2d, 0xb7, 0x3e, 0x80, 0x31, 0xc0, 0xbd,
    0x63, 0xe8, 0xd8, 0x3e, 0x90, 0x7d, 0xb3, 0x3e,
    0xcf, 0x81, 0x86, 0x3e, 0x54, 0xa7, 0x23, 0xbe,
    0x7a, 0x59, 0xed, 0x3e, 0x10, 0xab, 0x8f, 0xbc,
    0x51, 0x22, 0xd9, 0xbe, 0x72, 0x98, 0x8e, 0x3e,
    0x03, 0xd9, 0x6a, 0x3d, 0xbb, 0xee, 0x02, 0x3d,
    0xd9, 0xc8, 0xd2, 0xbe, 0x50, 0xc5, 0xba, 0xbe,
    0x3c, 0x3f, 0x84, 0xbe, 0x3c, 0x2c, 0xc5, 0xbd,
    0x4c, 0xf3, 0xb7, 0xbe, 0x0f, 0x70, 0xcf, 0x3e,
    0x94, 0xd8, 0x60, 0x3c, 0xe6, 0xb4, 0x92, 0x3e,
    0x37, 0xd8, 0xbc, 0x3e, 0x6c, 0xa8, 0xae, 0x3e,
    0x99, 0xd6, 0xc5, 0x3e, 0x1c, 0x7c, 0xc3, 0xbe,
    0x60, 0x18, 0x4a, 0x3e, 0x18, 0x2f, 0x80, 0xbe,
    0xee, 0x89, 0x24, 0xbe, 0x70, 0x4f, 0x8d, 0x3e,
    0xc1, 0x76, 0xd2, 0x3d, 0x0c, 0xec, 0x6c, 0x3e,
    0x3e, 0xec, 0x42, 0xbe, 0x38, 0x2e, 0x95, 0xbd,
    0x96, 0xf7, 0xff, 0xff, 0x04, 0x00, 0x00, 0x00,
    0x00, 0x08, 0x00, 0x00, 0x56, 0x55, 0x7b, 0x3e,
    0x59, 0xbe, 0x45, 0xbe, 0xa7, 0x32, 0xc9, 0xbd,
    0x80, 0xa9, 0x87, 0xbe, 0xf5, 0x23, 0x79, 0x3f,
    0x3a, 0x27, 0xf8, 0xbd, 0x0e, 0x11, 0xc1, 0x3e,
    0x58, 0xed, 0xad, 0xbe, 0xc8, 0x82, 0x86, 0x3d,
    0xda, 0x24, 0x0e, 0x3f, 0x61, 0x52, 0x25, 0xbf,
    0xfb, 0x20, 0xe8, 0xbe, 0x88, 0x96, 0x8e, 0x3d,
    0x26, 0x23, 0x59, 0x3e, 0xd5, 0xc1, 0x9c, 0x3e,
    0x6d, 0xa4, 0x9e, 0x3e, 0x3e, 0xc1, 0x9f, 0xbe,
    0xee, 0x54, 0x22, 0x3f, 0x65, 0x3e, 0x75, 0xbf,
    0xda, 0x3b, 0xf2, 0xbe, 0xe6, 0x05, 0xd0, 0x3e,
    0x54, 0x83, 0x17, 0x3f, 0x59, 0x73, 0x90, 0xbe,
    0x04, 0xc4, 0xd0, 0x3d, 0x6a, 0x52, 0x25, 0x3f,
    0x10, 0xd9, 0xf0, 0x3d, 0x7a, 0x8b, 0x3d, 0xbe,
    0x1f, 0x82, 0x1b, 0xbe, 0x65, 0x83, 0xf0, 0x3d,
    0x5e, 0x07, 0x01, 0x3f, 0x3f, 0x02, 0x2e, 0xbe,
    0x40, 0x4b, 0x8d, 0xbd, 0xb1, 0x6e, 0x5b, 0x3d,
    0xdd, 0x79, 0xb3, 0x3e, 0xf8, 0x03, 0x81, 0xbd,
    0x1d, 0x4d, 0x0d, 0x3e, 0x69, 0xeb, 0x73, 0x3e,
    0x74, 0x20, 0x00, 0xbe, 0xfe, 0xc3, 0x88, 0xbd,
    0x60, 0xba, 0xb4, 0x3c, 0x03, 0x0e, 0x95, 0x3e,
    0xf4, 0x23, 0xa9, 0xbe, 0xea, 0x95, 0x6b, 0x3d,
    0xa1, 0x39, 0x8d, 0x3e, 0xcc, 0xf4, 0xf7, 0x3d,
    0x85, 0x31, 0x20, 0xbe, 0x14, 0x60, 0xad, 0xbd,
    0x30, 0x0c, 0x95, 0x3c, 0xff, 0xd0, 0x84, 0x3e,
    0x35, 0xa9, 0xcf, 0xbd, 0x21, 0x44, 0xe3, 0x3a,
    0xc8, 0x25, 0x14, 0x3e, 0x6e, 0xed, 0x80, 0x3e,
    0x00, 0xb5, 0xed, 0xbd, 0xed, 0xeb, 0x46, 0xbd,
    0xf3, 0xca, 0x09, 0xbe, 0xdf, 0x6d, 0x6e, 0xbc,
    0x62, 0x9d, 0x2b, 0xbe, 0xa0, 0xe0, 0x1a, 0xbd,
    0x18, 0x30, 0xa5, 0xbe, 0x55, 0x41, 0x81, 0xbd,
    0xe6, 0xfd, 0x99, 0x3e, 0x16, 0x29, 0x1b, 0x3e,
    0xf5, 0x4a, 0x8e, 0x3e, 0x35, 0x89, 0x9a, 0x3e,
    0x41, 0xa2, 0x87, 0x3e, 0x7b, 0x13, 0xa4, 0x3e,
    0x60, 0xac, 0x11, 0xbd, 0x98, 0x1f, 0x9d, 0x3e,
    0xd9, 0x4f, 0xb0, 0x3e, 0xf2, 0x4c, 0xff, 0xbc,
    0xd4, 0xfb, 0x9e, 0xbe, 0x00, 0x6b, 0x5f, 0x3b,
    0x0b, 0xe2, 0x8b, 0x3d, 0xd2, 0xec, 0x8c, 0x3d,
    0x04, 0x06, 0x6e, 0x3e, 0x69, 0xfd, 0x8d, 0x3e,
    0x00, 0xcd, 0x5f, 0x3c, 0x26, 0xd3, 0x8f, 0xbe,
    0xa2, 0x2e, 0x47, 0x3e, 0xe7, 0x62, 0xb0, 0x3e,
    0x8f, 0x1c, 0x8d, 0xbe, 0x93, 0xce, 0x46, 0xbe,
    0xf1, 0x15, 0x93, 0x3e, 0xcd, 0xc0, 0x64, 0xbe,
    0x40, 0xc9, 0xe3, 0x3d, 0x7e, 0xb0, 0x08, 0x3e,
    0xd1, 0x22, 0x88, 0xbe, 0x51, 0x34, 0x88, 0x3d,
    0xa5, 0x39, 0x93, 0x3e, 0x3a, 0xfa, 0x5c, 0x3e,
    0x13, 0xda, 0x2b, 0xbe, 0xe6, 0xd4, 0xb0, 0xbd,
    0x46, 0x2a, 0x31, 0x3d, 0xc9, 0x9f, 0x0f, 0xbe,
    0xe0, 0x6d, 0x83, 0xbe, 0x5b, 0xee, 0xa7, 0x3e,
    0xdb, 0x4f, 0x3a, 0xbe, 0x41, 0x03, 0x9a, 0xbe,
    0xfe, 0x6e, 0x87, 0xbe, 0x62, 0x82, 0x91, 0xbb,
    0xf8, 0xbf, 0x53, 0x3d, 0xe5, 0x37, 0xbf, 0x3e,
    0x3f, 0x59, 0x9a, 0x3e, 0x66, 0xef, 0x70, 0xbe,
    0xc4, 0xda, 0x9b, 0x3e, 0xe5, 0x8b, 0x0e, 0xbe,
    0xc9, 0xdd, 0x97, 0xbc, 0x5b, 0xd5, 0xa9, 0x3e,
    0x70, 0x14, 0x01, 0x3d, 0x06, 0x98, 0x6d, 0x3e,
    0xfe, 0xd4, 0x23, 0x3e, 0x8e, 0xc9, 0x27, 0x3e,
    0x31, 0x9f, 0x9c, 0x3e, 0x37, 0x56, 0xb0, 0xbe,
    0xda, 0xa9, 0x4a, 0x3d, 0x2e, 0x70, 0x1b, 0xbd,
    0x0c, 0x9f, 0xe3, 0xbc, 0xa9, 0xb1, 0x16, 0x3e,
    0x96, 0xe1, 0x89, 0xbe, 0x4c, 0x1e, 0xaa, 0x3e,
    0xa7, 0x56, 0xa6, 0x3e, 0x6e, 0x64, 0x35, 0x3e,
    0x90, 0xbc, 0x3a, 0x3e, 0xc7, 0x36, 0xac, 0x3e,
    0xc9, 0x8d, 0x91, 0x3d, 0x2d, 0x08, 0xad, 0x3e,
    0xbb, 0xd4, 0x0f, 0xbe, 0x04, 0x80, 0x90, 0x3e,
    0xb8, 0xb4, 0x0c, 0xbd, 0x5a, 0x6c, 0x7b, 0x3e,
    0x64, 0xc4, 0x39, 0x3e, 0x55, 0xfe, 0x3c, 0xbe,
    0x02, 0xfa, 0x52, 0xbe, 0xf0, 0x1c, 0x50, 0x3e,
    0x6a, 0x97, 0x2f, 0x3e, 0xfd, 0x33, 0xaa, 0x3e,
    0x18, 0x4f, 0x63, 0x3e, 0xca, 0xa5, 0x73, 0x3e,
    0x88, 0x6c, 0x36, 0xbe, 0x69, 0x4d, 0x5e, 0xbe,
    0x58, 0x5b, 0xbf, 0xbd, 0xd9, 0xab, 0x68, 0xbe,
    0x2a, 0x52, 0xef, 0xbd, 0xda, 0x31, 0x06, 0x3e,
    0x62, 0xbf, 0x64, 0xbe, 0xa0, 0x49, 0x89, 0xbd,
    0x71, 0x9f, 0x23, 0x3e, 0xdc, 0x10, 0x27, 0x3e,
    0x50, 0x59, 0x86, 0xbe, 0x04, 0xbd, 0x11, 0x3e,
    0xfb, 0x41, 0x81, 0x3e, 0x51, 0x69, 0x43, 0xbe,
    0x95, 0xb3, 0xaa, 0x3e, 0x62, 0xb1, 0x5d, 0xbe,
    0xa1, 0x6c, 0x36, 0x3c, 0x8d, 0x91, 0x5b, 0xbe,
    0x6d, 0x47, 0xb5, 0xbe, 0x60, 0x47, 0xaf, 0xbc,
    0x10, 0xc3, 0xe9, 0x3d, 0xb9, 0x93, 0x17, 0x3e,
    0x4f, 0x63, 0x9f, 0x3e, 0xfd, 0xde, 0x91, 0x3e,
    0x45, 0x8b, 0x28, 0x3e, 0x2e, 0x31, 0x47, 0x3e,
    0x26, 0x4d, 0x0e, 0x3e, 0x08, 0x7c, 0x98, 0xbe,
    0x1c, 0xa4, 0xb3, 0xbd, 0x83, 0x35, 0x88, 0x3e,
    0x40, 0xbf, 0x22, 0x3d, 0xe1, 0xd5, 0x8a, 0xbd,
    0xc0, 0x18, 0xb6, 0xbe, 0x88, 0xc0, 0xa4, 0x3d,
    0x77, 0xe3, 0x81, 0x3e, 0x88, 0x9c, 0x15, 0x3d,
    0x4f, 0xeb, 0xa5, 0xbe, 0x4d, 0xfe, 0x38, 0xbe,
    0xab, 0x38, 0xa0, 0xbe, 0x18, 0x94, 0xa6, 0xbe,
    0x1c, 0x0c, 0xa8, 0xbd, 0x73, 0x16, 0xa2, 0xbe,
    0xfc, 0x56, 0x3b, 0x3d, 0x15, 0x27, 0x53, 0x3e,
    0x52, 0xba, 0x30, 0x3e, 0xca, 0xa6, 0x18, 0x3e,
    0xa0, 0x69, 0x54, 0x3c, 0xf0, 0xb1, 0x92, 0xbc,
    0x55, 0x7b, 0xb3, 0xbe, 0x14, 0x2b, 0xfe, 0xbd,
    0xcb, 0x1b, 0x92, 0xbe, 0x4f, 0xbf, 0x84, 0xbe,
    0xca, 0x61, 0x1b, 0x3e, 0xf3, 0x87, 0x8b, 0x3e,
    0xc1, 0xb5, 0x73, 0xbe, 0x73, 0x84, 0x27, 0xbc,
    0x98, 0xb3, 0x04, 0x3e, 0xd3, 0x08, 0x1b, 0x3d,
    0xf0, 0x3d, 0xbf, 0xbc, 0x97, 0xb7, 0x48, 0xbd,
    0x9b, 0xb8, 0x66, 0xbe, 0xb1, 0xac, 0x88, 0x3e,
    0xca, 0x00, 0x9b, 0xbd, 0x2a, 0x55, 0x43, 0xbb,
    0x77, 0x9b, 0x07, 0x3e, 0x82, 0x70, 0x23, 0x3e,
    0x46, 0xe0, 0x62, 0x3e, 0x38, 0x9e, 0xb3, 0xbd,
    0x20, 0x8e, 0x76, 0x3c, 0xc0, 0x83, 0x7b, 0xbc,
    0xbd, 0x7b, 0xa6, 0x3e, 0x39, 0xfd, 0x5c, 0x3e,
    0x1f, 0x93, 0x4f, 0xbe, 0x13, 0xab, 0x10, 0x3e,
    0x2b, 0x28, 0xa8, 0x3e, 0xdc, 0x87, 0x11, 0xbe,
    0x60, 0x63, 0xeb, 0xbd, 0x88, 0xd3, 0xb1, 0x3e,
    0xa0, 0xdb, 0x73, 0xbd, 0xc0, 0x9d, 0xb0, 0x3b,
    0xa3, 0x96, 0xe7, 0x3d, 0xd1, 0x4d, 0xf4, 0x3e,
    0x1c, 0x20, 0x79, 0xbd, 0xfa, 0x88, 0x18, 0xbe,
    0x80, 0xea, 0xdf, 0x3c, 0xb7, 0x60, 0x11, 0x3e,
    0x92, 0x8b, 0x05, 0x3e, 0x17, 0x00, 0x2d, 0xbf,
    0x17, 0x1a, 0xae, 0x3d, 0x96, 0xde, 0x00, 0xbf,
    0xee, 0xe7, 0xe4, 0xbd, 0xc6, 0x30, 0x2f, 0xbf,
    0xd0, 0xd7, 0xf6, 0xbc, 0x0e, 0x96, 0xf5, 0xbd,
    0x6e, 0xa5, 0x37, 0xbf, 0xca, 0x06, 0x81, 0x3e,
    0x05, 0x95, 0x28, 0x3f, 0x6c, 0xac, 0xce, 0xbd,
    0xf5, 0xd0, 0x05, 0xbe, 0x79, 0x73, 0x92, 0x3e,
    0x18, 0xab, 0xae, 0xbd, 0xe6, 0x7e, 0x65, 0x3e,
    0x22, 0x1a, 0xd2, 0xbd, 0xcf, 0x4e, 0x9e, 0x3e,
    0xfd, 0x13, 0x84, 0x3e, 0x0b, 0xe9, 0x91, 0xbd,
    0x22, 0x4e, 0x38, 0x3e, 0x91, 0x28, 0xc5, 0xbe,
    0x37, 0x21, 0x80, 0x3e, 0x9a, 0x52, 0xc2, 0xbe,
    0x58, 0x62, 0x09, 0xbd, 0x46, 0x6f, 0x1e, 0x3e,
    0x91, 0x0f, 0xe8, 0x3d, 0xb6, 0x8a, 0x08, 0x3f,
    0x22, 0xb4, 0x00, 0x3f, 0x38, 0x6a, 0x3c, 0xbd,
    0xe5, 0x14, 0xa0, 0x3e, 0x8e, 0x63, 0x37, 0x3e,
    0x38, 0x81, 0x05, 0x3d, 0x78, 0x95, 0xfc, 0xbd,
    0x4e, 0x19, 0xac, 0xbe, 0xa0, 0x25, 0x21, 0x3c,
    0xeb, 0x6b, 0x86, 0x3e, 0xfe, 0xfe, 0x71, 0x3e,
    0xfe, 0xf0, 0x6f, 0x3e, 0xd2, 0x36, 0x9a, 0xbe,
    0x6a, 0x49, 0xef, 0xbd, 0xc6, 0x0f, 0x96, 0xbe,
    0x96, 0x35, 0xac, 0xbe, 0x00, 0x70, 0x1a, 0xbb,
    0x4e, 0xcd, 0x39, 0x3e, 0xa3, 0x9a, 0x39, 0xbe,
    0x48, 0x19, 0xad, 0x3d, 0x10, 0x37, 0x15, 0xbd,
    0x74, 0xd8, 0x92, 0x3d, 0x52, 0x6b, 0x14, 0xbe,
    0xc0, 0x80, 0xe8, 0xbb, 0xb8, 0xde, 0x63, 0x3d,
    0x7b, 0x28, 0x98, 0x3e, 0x80, 0xbd, 0xe1, 0x3d,
    0xef, 0x99, 0xad, 0x3e, 0x22, 0x4a, 0x68, 0xbe,
    0x9a, 0x96, 0x83, 0xbe, 0x0f, 0x76, 0xa1, 0x3e,
    0x94, 0x19, 0x82, 0xbe, 0x53, 0x25, 0x41, 0xbe,
    0xb8, 0x80, 0xa4, 0x3d, 0x2e, 0xae, 0x26, 0x3e,
    0xc1, 0xf7, 0x39, 0xbe, 0x7f, 0xab, 0xa2, 0x3c,
    0x5e, 0xe1, 0x36, 0x3e, 0xd8, 0xee, 0xa4, 0x3e,
    0x47, 0x7f, 0x8d, 0xbe, 0xda, 0x91, 0x30, 0x3d,
    0x86, 0x03, 0xe1, 0xbd, 0x96, 0x03, 0x3b, 0x3e,
    0xca, 0xfd, 0x56, 0xbe, 0x52, 0x1e, 0x18, 0x3e,
    0x14, 0x93, 0x03, 0xbe, 0x15, 0x47, 0xa1, 0xbe,
    0xa7, 0x6b, 0x32, 0xbe, 0x26, 0xeb, 0x84, 0xbe,
    0x44, 0x48, 0xc8, 0xbd, 0xb9, 0x48, 0x41, 0xbe,
    0x94, 0x9a, 0xb7, 0xbd, 0x34, 0x4c, 0x91, 0x3d,
    0x36, 0xe0, 0xd9, 0xbd, 0x95, 0x20, 0xa6, 0xbe,
    0xf4, 0xc7, 0x1c, 0x3e, 0x78, 0xf5, 0x00, 0x3d,
    0xf2, 0x32, 0x02, 0xbe, 0xfc, 0xe1, 0x4c, 0x3e,
    0xd3, 0x8b, 0x81, 0x3e, 0x8d, 0xf3, 0x5a, 0x3e,
    0x55, 0xf3, 0x97, 0x3e, 0x9e, 0xdd, 0x46, 0x3e,
    0x67, 0x53, 0xad, 0x3e, 0xa3, 0x4a, 0x9e, 0x3e,
    0x88, 0x6c, 0xb3, 0x3e, 0x48, 0x21, 0xda, 0x3d,
    0x30, 0xa0, 0x6b, 0xbd, 0xa5, 0x27, 0x92, 0xbe,
    0x13, 0x2d, 0xab, 0xbe, 0xd4, 0xa9, 0x61, 0x3a,
    0x4f, 0x13, 0xa7, 0xbd, 0x3d, 0xef, 0x08, 0xbe,
    0xe1, 0xb2, 0x91, 0x3e, 0x24, 0xb4, 0x1d, 0x3e,
    0x47, 0xb0, 0x91, 0x3e, 0x0f, 0x66, 0xae, 0xbe,
    0x85, 0x02, 0xa0, 0x3e, 0x8b, 0xa2, 0x6b, 0xbe,
    0xe1, 0x53, 0x8f, 0xbe, 0xab, 0xdc, 0x1f, 0xbe,
    0x9a, 0x91, 0x0a, 0x3e, 0xe9, 0xba, 0x2e, 0xbe,
    0xbe, 0xdb, 0x58, 0x3e, 0xc8, 0x25, 0x03, 0xbe,
    0x9c, 0xe8, 0xed, 0xbd, 0x59, 0xf3, 0xdd, 0x3c,
    0xa3, 0x27, 0x61, 0x3e, 0xaa, 0x71, 0xd6, 0xbd,
    0xba, 0x22, 0xfd, 0xbd, 0xc2, 0x58, 0x9f, 0x3d,
    0x7c, 0x54, 0xc1, 0x3d, 0x0c, 0x67, 0xad, 0xbe,
    0x5f, 0x77, 0xb4, 0x3e, 0x00, 0x28, 0xbd, 0xb9,
    0x2b, 0x06, 0x68, 0xbe, 0x6d, 0x5f, 0xa5, 0xbe,
    0x1b, 0x7b, 0xfe, 0x3d, 0xf6, 0xd9, 0x6c, 0x3e,
    0x40, 0xe0, 0x38, 0xbd, 0x00, 0x31, 0x2d, 0xbb,
    0xb1, 0xa0, 0x87, 0x3e, 0xc2, 0x37, 0x85, 0xbe,
    0x16, 0xd4, 0x89, 0xbe, 0xdd, 0x09, 0x9a, 0x3e,
    0x27, 0xa7, 0xaf, 0xbe, 0xf0, 0x4d, 0xb0, 0xbc,
    0x9c, 0x5a, 0x8e, 0xbd, 0xbb, 0xcf, 0xb2, 0x3e,
    0x3c, 0x86, 0xa9, 0xbd, 0xd0, 0xd8, 0x84, 0xbc,
    0x06, 0xb6, 0x49, 0x3e, 0xfe, 0x19, 0x1c, 0x3e,
    0x26, 0x2d, 0x24, 0x3e, 0x79, 0x4b, 0x93, 0xbe,
    0x0c, 0x0b, 0x8b, 0xbd, 0xe4, 0x8e, 0x44, 0xbe,
    0x92, 0x1b, 0xfe, 0xbd, 0x0a, 0x50, 0x73, 0x3e,
    0x89, 0x21, 0x6d, 0xbe, 0xef, 0xaf, 0xa7, 0x3e,
    0x09, 0x8b, 0x9e, 0xbe, 0x94, 0x96, 0x96, 0xbd,
    0x64, 0xb5, 0xae, 0xbd, 0xa0, 0x51, 0xc2, 0x3d,
    0xa0, 0x54, 0xa3, 0xbc, 0xc0, 0xee, 0x8a, 0xbc,
    0x47, 0xb4, 0x8e, 0x3e, 0x50, 0xab, 0xee, 0xbc,
    0xb0, 0x77, 0xdb, 0xbc, 0x30, 0x26, 0xae, 0xbe,
    0xc6, 0x19, 0xdd, 0xbd, 0xcb, 0x08, 0x06, 0x3d,
    0xbe, 0xca, 0x17, 0xbe, 0x59, 0xb2, 0x71, 0x3e,
    0x41, 0x16, 0x53, 0xbe, 0x93, 0xab, 0xb9, 0xbe,
    0x40, 0x53, 0xba, 0x3d, 0x61, 0x44, 0xa6, 0x3e,
    0x90, 0xd6, 0xca, 0xbc, 0x2d, 0x8c, 0x1d, 0xbe,
    0x2d, 0xe6, 0xb4, 0xbe, 0xe5, 0x0c, 0x99, 0x3e,
    0x5b, 0x15, 0x88, 0x3e, 0x9c, 0xde, 0xd2, 0x3d,
    0x10, 0xd0, 0x0b, 0xbd, 0xfa, 0xf7, 0x13, 0x3e,
    0xf6, 0xbd, 0x7f, 0x3e, 0xb6, 0xf8, 0x48, 0xbe,
    0xea, 0x79, 0xd7, 0xbc, 0x4b, 0xcd, 0x4d, 0xbe,
    0xd9, 0xb9, 0x07, 0xbe, 0x89, 0x48, 0xbf, 0xbd,
    0x95, 0xb4, 0x29, 0xbe, 0x88, 0xa3, 0x97, 0x3e,
    0xb0, 0x12, 0x8c, 0xbe, 0x2b, 0xc9, 0x38, 0xbd,
    0xa2, 0x14, 0x18, 0x3e, 0xd0, 0xb5, 0xe6, 0x3c,
    0x9f, 0x20, 0xbf, 0x3d, 0xab, 0x3b, 0x98, 0xbe,
    0x3d, 0x6b, 0xc9, 0x3c, 0x38, 0x55, 0x18, 0xbd,
    0xa1, 0xdd, 0x0c, 0xbe, 0x4e, 0x4e, 0x53, 0x3d,
    0x40, 0x38, 0xf3, 0x3d, 0xeb, 0x73, 0x9f, 0xbe,
    0x2c, 0x07, 0xc4, 0xbd, 0x13, 0x22, 0xbd, 0xbe,
    0xb4, 0xc8, 0xb4, 0xbe, 0xc6, 0x30, 0x87, 0x3d,
    0xe4, 0xdf, 0x93, 0x3d, 0x6b, 0x91, 0x53, 0xbe,
    0x9f, 0xc3, 0xae, 0xbe, 0x71, 0xa5, 0xaf, 0xbd,
    0x19, 0x22, 0x53, 0x3e, 0x7e, 0xda, 0x3a, 0x3e,
    0xe0, 0xa6, 0xa9, 0x3c, 0x4e, 0x16, 0x43, 0x3e,
    0xc5, 0xd6, 0xb2, 0x3e, 0x5a, 0xa1, 0xdf, 0xbd,
    0x0d, 0x7a, 0x32, 0x3e, 0x96, 0x9a, 0x83, 0x3e,
    0x48, 0xbf, 0x9e, 0x3e, 0x1f, 0xb2, 0x96, 0xbe,
    0x7d, 0x98, 0x8b, 0xbe, 0xc7, 0x30, 0xad, 0x3e,
    0x21, 0xaa, 0x8f, 0x3e, 0x42, 0x5d, 0x87, 0xbc,
    0xf2, 0xe5, 0x5a, 0x3e, 0xf7, 0x7a, 0x9a, 0x3e,
    0x9f, 0xf5, 0x99, 0xbe, 0x74, 0x77, 0xfe, 0x3d,
    0xa7, 0x9e, 0x72, 0xbe, 0xd8, 0xfe, 0x83, 0xbe,
    0x20, 0x7e, 0xe6, 0xbc, 0x98, 0x97, 0x9b, 0xba,
    0xd9, 0x84, 0x31, 0xbe, 0x88, 0xde, 0xbc, 0x3e,
    0xbf, 0xa8, 0x3b, 0xbe, 0xab, 0xf6, 0xab, 0xbd,
    0x20, 0x6b, 0x11, 0x3d, 0xe9, 0x92, 0x8d, 0x3e,
    0x20, 0x88, 0x75, 0x3c, 0x52, 0xff, 0x50, 0x3e,
    0xbe, 0x24, 0x24, 0xbd, 0x77, 0x79, 0x7e, 0x3c,
    0x22, 0xc0, 0x01, 0x3e, 0xd6, 0x24, 0xe3, 0xbd,
    0x73, 0x7a, 0x8d, 0x3e, 0x7c, 0x30, 0xe4, 0x3d,
    0x79, 0xde, 0xaf, 0xbe, 0x70, 0x1a, 0x9e, 0xbe,
    0x98, 0xc8, 0xe4, 0xbd, 0x0e, 0x3e, 0x84, 0xbe,
    0xd4, 0xd5, 0x1f, 0xbc, 0xe1, 0x7b, 0xad, 0x3e,
    0x4c, 0x00, 0x96, 0x3e, 0xa7, 0xa0, 0x65, 0x3e,
    0x80, 0x43, 0xc4, 0x3c, 0x9e, 0x0c, 0x6e, 0xbe,
    0x86, 0x44, 0x21, 0x3e, 0x45, 0xc0, 0x3d, 0xbe,
    0x9a, 0xf0, 0x04, 0xbd, 0x24, 0xc2, 0x3c, 0x3e,
    0xd2, 0x73, 0xb6, 0x3e, 0xf0, 0x97, 0x92, 0x3c,
    0xf5, 0x4b, 0xa3, 0x3e, 0x42, 0xe5, 0xa5, 0xbe,
    0x67, 0x63, 0x80, 0x3e, 0xa1, 0xa5, 0x0d, 0xbe,
    0x35, 0x00, 0x09, 0xbe, 0x3c, 0xee, 0xb4, 0xbd,
    0xec, 0x1a, 0x4d, 0xbe, 0xd8, 0xdb, 0x7b, 0x3d,
    0x34, 0x5f, 0xa8, 0xbd, 0x1b, 0x16, 0x96, 0x3e,
    0x8f, 0x0e, 0x9f, 0x3e, 0x0c, 0x7c, 0xdf, 0x3d,
    0x39, 0x63, 0xf1, 0xbd, 0x73, 0x99, 0x90, 0x3e,
    0x56, 0x1a, 0x0b, 0x3e, 0xbd, 0xcd, 0xa5, 0x3e,
    0x00, 0x64, 0x0d, 0x3d, 0xb0, 0xc2, 0xea, 0xbd,
    0xd0, 0x8f, 0x14, 0x3d, 0xc6, 0x6f, 0x82, 0xbe,
    0x5c, 0xe9, 0x9a, 0x3e, 0x88, 0x8d, 0x6e, 0x3d,
    0x41, 0xac, 0xa5, 0x3e, 0x0d, 0xd7, 0xf2, 0xbd,
    0xf9, 0x88, 0x86, 0xbe, 0x2f, 0x17, 0x67, 0xbe,
    0xd1, 0x81, 0x60, 0xbe, 0xb9, 0x7d, 0x2e, 0xbe,
    0x39, 0x9a, 0x7b, 0xbe, 0x06, 0x7e, 0x2b, 0x3e,
    0x5c, 0xf5, 0xb5, 0xbd, 0xc7, 0x80, 0x64, 0xbe,
    0xc6, 0x20, 0x4a, 0x3e, 0xa2, 0xff, 0xff, 0xff,
    0x04, 0x00, 0x00, 0x00, 0x40, 0x00, 0x00, 0x00,
    0x7e, 0x57, 0x95, 0x3f, 0x62, 0x56, 0x70, 0x3e,
    0xad, 0x05, 0x80, 0x3e, 0x93, 0xc1, 0xc7, 0xbe,
    0x3c, 0x24, 0xd5, 0x3e, 0xb3, 0xbd, 0x2a, 0x3d,
    0x20, 0xe6, 0x27, 0xbe, 0x4c, 0x16, 0x88, 0xbf,
    0x70, 0xf0, 0x60, 0xbd, 0x9b, 0x38, 0x2c, 0xbf,
    0x53, 0x2a, 0x7b, 0x3b, 0x98, 0x24, 0x49, 0x3e,
    0x14, 0x99, 0x73, 0x3e, 0x6e, 0xe6, 0x89, 0x3f,
    0x56, 0xbb, 0xd0, 0xbe, 0xb5, 0xf1, 0x7a, 0x3e,
    0xee, 0xff, 0xff, 0xff, 0x04, 0x00, 0x00, 0x00,
    0x04, 0x00, 0x00, 0x00, 0x0e, 0x58, 0x7a, 0x3d,
    0x00, 0x00, 0x06, 0x00, 0x08, 0x00, 0x04, 0x00,
    0x06, 0x00, 0x00, 0x00, 0x04, 0x00, 0x00, 0x00,
    0x40, 0x00, 0x00, 0x00, 0x1f, 0x73, 0xad, 0xbf,
    0x94, 0xc7, 0x8d, 0x3d, 0x79, 0x72, 0x7f, 0x3d,
    0x25, 0x60, 0xdb, 0xbd, 0x47, 0x1a, 0x80, 0x3d,
    0x19, 0xc0, 0x35, 0xbc, 0x1b, 0x24, 0xe6, 0xbd,
    0xfb, 0x90, 0xf1, 0x3e, 0x00, 0x00, 0x00, 0x00,
    0xa3, 0x75, 0xb6, 0xbd, 0x2b, 0xe3, 0x77, 0xbc,
    0x00, 0x00, 0x00, 0x00, 0x63, 0x8e, 0x8c, 0x3d,
    0x23, 0x8c, 0x50, 0x3e, 0x81, 0x13, 0xd2, 0xbd,
    0x56, 0x8e, 0xfd, 0xbc, 0x34, 0xfb, 0xff, 0xff,
    0x38, 0xfb, 0xff, 0xff, 0x0f, 0x00, 0x00, 0x00,
    0x4d, 0x4c, 0x49, 0x52, 0x20, 0x43, 0x6f, 0x6e,
    0x76, 0x65, 0x72, 0x74, 0x65, 0x64, 0x2e, 0x00,
    0x01, 0x00, 0x00, 0x00, 0x14, 0x00, 0x00, 0x00,
    0x00, 0x00, 0x0e, 0x00, 0x18, 0x00, 0x14, 0x00,
    0x10, 0x00, 0x0c, 0x00, 0x08, 0x00, 0x04, 0x00,
    0x0e, 0x00, 0x00, 0x00, 0x14, 0x00, 0x00, 0x00,
    0x1c, 0x00, 0x00, 0x00, 0xe8, 0x00, 0x00, 0x00,
    0xec, 0x00, 0x00, 0x00, 0xf0, 0x00, 0x00, 0x00,
    0x04, 0x00, 0x00, 0x00, 0x6d, 0x61, 0x69, 0x6e,
    0x00, 0x00, 0x00, 0x00, 0x03, 0x00, 0x00, 0x00,
    0x90, 0x00, 0x00, 0x00, 0x48, 0x00, 0x00, 0x00,
    0x04, 0x00, 0x00, 0x00, 0xce, 0xff, 0xff, 0xff,
    0x10, 0x00, 0x00, 0x00, 0x00, 0x00, 0x00, 0x08,
    0x0c, 0x00, 0x00, 0x00, 0x10, 0x00, 0x00, 0x00,
    0xb0, 0xfb, 0xff, 0xff, 0x01, 0x00, 0x00, 0x00,
    0x09, 0x00, 0x00, 0x00, 0x03, 0x00, 0x00, 0x00,
    0x08, 0x00, 0x00, 0x00, 0x03, 0x00, 0x00, 0x00,
    0x02, 0x00, 0x00, 0x00, 0x00, 0x00, 0x0e, 0x00,
    0x14, 0x00, 0x00, 0x00, 0x10, 0x00, 0x0c, 0x00,
    0x0b, 0x00, 0x04, 0x00, 0x0e, 0x00, 0x00, 0x00,
    0x10, 0x00, 0x00, 0x00, 0x00, 0x00, 0x00, 0x08,
    0x10, 0x00, 0x00, 0x00, 0x14, 0x00, 0x00, 0x00,
    0xba, 0xff, 0xff, 0xff, 0x00, 0x00, 0x00, 0x01,
    0x01, 0x00, 0x00, 0x00, 0x08, 0x00, 0x00, 0x00,
    0x03, 0x00, 0x00, 0x00, 0x07, 0x00, 0x00, 0x00,
    0x04, 0x00, 0x00, 0x00, 0x01, 0x00, 0x00, 0x00,
    0x00, 0x00, 0x0e, 0x00, 0x16, 0x00, 0x00, 0x00,
    0x10, 0x00, 0x0c, 0x00, 0x0b, 0x00, 0x04, 0x00,
    0x0e, 0x00, 0x00, 0x00, 0x18, 0x00, 0x00, 0x00,
    0x00, 0x00, 0x00, 0x08, 0x18, 0x00, 0x00, 0x00,
    0x1c, 0x00, 0x00, 0x00, 0x00, 0x00, 0x06, 0x00,
    0x08, 0x00, 0x07, 0x00, 0x06, 0x00, 0x00, 0x00,
    0x00, 0x00, 0x00, 0x01, 0x01, 0x00, 0x00, 0x00,
    0x07, 0x00, 0x00, 0x00, 0x03, 0x00, 0x00, 0x00,
    0x00, 0x00, 0x00, 0x00, 0x05, 0x00, 0x00, 0x00,
    0x06, 0x00, 0x00, 0x00, 0x01, 0x00, 0x00, 0x00,
    0x09, 0x00, 0x00, 0x00, 0x01, 0x00, 0x00, 0x00,
    0x00, 0x00, 0x00, 0x00, 0x0a, 0x00, 0x00, 0x00,
    0x68, 0x03, 0x00, 0x00, 0x14, 0x03, 0x00, 0x00,
    0xc0, 0x02, 0x00, 0x00, 0x80, 0x02, 0x00, 0x00,
    0x40, 0x02, 0x00, 0x00, 0xf4, 0x01, 0x00, 0x00,
    0x90, 0x01, 0x00, 0x00, 0xfc, 0x00, 0x00, 0x00,
    0x60, 0x00, 0x00, 0x00, 0x04, 0x00, 0x00, 0x00,
    0xd6, 0xfc, 0xff, 0xff, 0x00, 0x00, 0x00, 0x01,
    0x14, 0x00, 0x00, 0x00, 0x1c, 0x00, 0x00, 0x00,
    0x1c, 0x00, 0x00, 0x00, 0x0a, 0x00, 0x00, 0x00,
    0x34, 0x00, 0x00, 0x00, 0x02, 0x00, 0x00, 0x00,
    0xff, 0xff, 0xff, 0xff, 0x01, 0x00, 0x00, 0x00,
    0xc0, 0xfc, 0xff, 0xff, 0x1b, 0x00, 0x00, 0x00,
    0x53, 0x74, 0x61, 0x74, 0x65, 0x66, 0x75, 0x6c,
    0x50, 0x61, 0x72, 0x74, 0x69, 0x74, 0x69, 0x6f,
    0x6e, 0x65, 0x64, 0x43, 0x61, 0x6c, 0x6c, 0x5f,
    0x31, 0x3a, 0x30, 0x00, 0x02, 0x00, 0x00, 0x00,
    0x01, 0x00, 0x00, 0x00, 0x01, 0x00, 0x00, 0x00,
    0x2e, 0xfd, 0xff, 0xff, 0x00, 0x00, 0x00, 0x01,
    0x14, 0x00, 0x00, 0x00, 0x1c, 0x00, 0x00, 0x00,
    0x1c, 0x00, 0x00, 0x00, 0x09, 0x00, 0x00, 0x00,
    0x74, 0x00, 0x00, 0x00, 0x02, 0x00, 0x00, 0x00,
    0xff, 0xff, 0xff, 0xff, 0x10, 0x00, 0x00, 0x00,
    0x18, 0xfd, 0xff, 0xff, 0x58, 0x00, 0x00, 0x00,
    0x73, 0x65, 0x71, 0x75, 0x65, 0x6e, 0x74, 0x69,
    0x61, 0x6c, 0x5f, 0x31, 0x2f, 0x64, 0x65, 0x6e,
    0x73, 0x65, 0x5f, 0x31, 0x5f, 0x32, 0x2f, 0x4d,
    0x61, 0x74, 0x4d, 0x75, 0x6c, 0x3b, 0x73, 0x65,
    0x71, 0x75, 0x65, 0x6e, 0x74, 0x69, 0x61, 0x6c,
    0x5f, 0x31, 0x2f, 0x64, 0x65, 0x6e, 0x73, 0x65,
    0x5f, 0x31, 0x5f, 0x32, 0x2f, 0x52, 0x65, 0x6c,
    0x75, 0x3b, 0x73, 0x65, 0x71, 0x75, 0x65, 0x6e,
    0x74, 0x69, 0x61, 0x6c, 0x5f, 0x31, 0x2f, 0x64,
    0x65, 0x6e, 0x73, 0x65, 0x5f, 0x31, 0x5f, 0x32,
    0x2f, 0x42, 0x69, 0x61, 0x73, 0x41, 0x64, 0x64,
    0x00, 0x00, 0x00, 0x00, 0x02, 0x00, 0x00, 0x00,
    0x01, 0x00, 0x00, 0x00, 0x10, 0x00, 0x00, 0x00,
    0xc6, 0xfd, 0xff, 0xff, 0x00, 0x00, 0x00, 0x01,
    0x14, 0x00, 0x00, 0x00, 0x1c, 0x00, 0x00, 0x00,
    0x1c, 0x00, 0x00, 0x00, 0x08, 0x00, 0x00, 0x00,
    0x6c, 0x00, 0x00, 0x00, 0x02, 0x00, 0x00, 0x00,
    0xff, 0xff, 0xff, 0xff, 0x20, 0x00, 0x00, 0x00,
    0xb0, 0xfd, 0xff, 0xff, 0x52, 0x00, 0x00, 0x00,
    0x73, 0x65, 0x71, 0x75, 0x65, 0x6e, 0x74, 0x69,
    0x61, 0x6c, 0x5f, 0x31, 0x2f, 0x64, 0x65, 0x6e,
    0x73, 0x65, 0x5f, 0x31, 0x2f, 0x4d, 0x61, 0x74,
    0x4d, 0x75, 0x6c, 0x3b, 0x73, 0x65, 0x71, 0x75,
    0x65, 0x6e, 0x74, 0x69, 0x61, 0x6c, 0x5f, 0x31,
    0x2f, 0x64, 0x65, 0x6e, 0x73, 0x65, 0x5f, 0x31,
    0x2f, 0x52, 0x65, 0x6c, 0x75, 0x3b, 0x73, 0x65,
    0x71, 0x75, 0x65, 0x6e, 0x74, 0x69, 0x61, 0x6c,
    0x5f, 0x31, 0x2f, 0x64, 0x65, 0x6e, 0x73, 0x65,
    0x5f, 0x31, 0x2f, 0x42, 0x69, 0x61, 0x73, 0x41,
    0x64, 0x64, 0x00, 0x00, 0x02, 0x00, 0x00, 0x00,
    0x01, 0x00, 0x00, 0x00, 0x20, 0x00, 0x00, 0x00,
    0xa6, 0xfe, 0xff, 0xff, 0x00, 0x00, 0x00, 0x01,
    0x10, 0x00, 0x00, 0x00, 0x10, 0x00, 0x00, 0x00,
    0x07, 0x00, 0x00, 0x00, 0x44, 0x00, 0x00, 0x00,
    0x30, 0xfe, 0xff, 0xff, 0x36, 0x00, 0x00, 0x00,
    0x73, 0x65, 0x71, 0x75, 0x65, 0x6e, 0x74, 0x69,
    0x61, 0x6c, 0x5f, 0x31, 0x2f, 0x64, 0x65, 0x6e,
    0x73, 0x65, 0x5f, 0x31, 0x2f, 0x52, 0x65, 0x6c,
    0x75, 0x3b, 0x73, 0x65, 0x71, 0x75, 0x65, 0x6e,
    0x74, 0x69, 0x61, 0x6c, 0x5f, 0x31, 0x2f, 0x64,
    0x65, 0x6e, 0x73, 0x65, 0x5f, 0x31, 0x2f, 0x42,
    0x69, 0x61, 0x73, 0x41, 0x64, 0x64, 0x00, 0x00,
    0x01, 0x00, 0x00, 0x00, 0x20, 0x00, 0x00, 0x00,
    0x06, 0xff, 0xff, 0xff, 0x00, 0x00, 0x00, 0x01,
    0x10, 0x00, 0x00, 0x00, 0x10, 0x00, 0x00, 0x00,
    0x06, 0x00, 0x00, 0x00, 0x28, 0x00, 0x00, 0x00,
    0x90, 0xfe, 0xff, 0xff, 0x1b, 0x00, 0x00, 0x00,
    0x73, 0x65, 0x71, 0x75, 0x65, 0x6e, 0x74, 0x69,
    0x61, 0x6c, 0x5f, 0x31, 0x2f, 0x64, 0x65, 0x6e,
    0x73, 0x65, 0x5f, 0x31, 0x2f, 0x4d, 0x61, 0x74,
    0x4d, 0x75, 0x6c, 0x00, 0x02, 0x00, 0x00, 0x00,
    0x20, 0x00, 0x00, 0x00, 0x01, 0x00, 0x00, 0x00,
    0x4e, 0xff, 0xff, 0xff, 0x00, 0x00, 0x00, 0x01,
    0x10, 0x00, 0x00, 0x00, 0x10, 0x00, 0x00, 0x00,
    0x05, 0x00, 0x00, 0x00, 0x1c, 0x00, 0x00, 0x00,
    0xd8, 0xfe, 0xff, 0xff, 0x0f, 0x00, 0x00, 0x00,
    0x61, 0x72, 0x69, 0x74, 0x68, 0x2e, 0x63, 0x6f,
    0x6e, 0x73, 0x74, 0x61, 0x6e, 0x74, 0x33, 0x00,
    0x02, 0x00, 0x00, 0x00, 0x10, 0x00, 0x00, 0x00,
    0x20, 0x00, 0x00, 0x00, 0x8a, 0xff, 0xff, 0xff,
    0x00, 0x00, 0x00, 0x01, 0x10, 0x00, 0x00, 0x00,
    0x10, 0x00, 0x00, 0x00, 0x04, 0x00, 0x00, 0x00,
    0x1c, 0x00, 0x00, 0x00, 0x14, 0xff, 0xff, 0xff,
    0x0f, 0x00, 0x00, 0x00, 0x61, 0x72, 0x69, 0x74,
    0x68, 0x2e, 0x63, 0x6f, 0x6e, 0x73, 0x74, 0x61,
    0x6e, 0x74, 0x32, 0x00, 0x02, 0x00, 0x00, 0x00,
    0x01, 0x00, 0x00, 0x00, 0x10, 0x00, 0x00, 0x00,
    0xc6, 0xff, 0xff, 0xff, 0x00, 0x00, 0x00, 0x01,
    0x10, 0x00, 0x00, 0x00, 0x10, 0x00, 0x00, 0x00,
    0x03, 0x00, 0x00, 0x00, 0x1c, 0x00, 0x00, 0x00,
    0x50, 0xff, 0xff, 0xff, 0x0f, 0x00, 0x00, 0x00,
    0x61, 0x72, 0x69, 0x74, 0x68, 0x2e, 0x63, 0x6f,
    0x6e, 0x73, 0x74, 0x61, 0x6e, 0x74, 0x31, 0x00,
    0x01, 0x00, 0x00, 0x00, 0x01, 0x00, 0x00, 0x00,
    0x00, 0x00, 0x16, 0x00, 0x18, 0x00, 0x14, 0x00,
    0x00, 0x00, 0x10, 0x00, 0x0c, 0x00, 0x08, 0x00,
    0x00, 0x00, 0x00, 0x00, 0x00, 0x00, 0x07, 0x00,
    0x16, 0x00, 0x00, 0x00, 0x00, 0x00, 0x00, 0x01,
    0x10, 0x00, 0x00, 0x00, 0x10, 0x00, 0x00, 0x00,
    0x02, 0x00, 0x00, 0x00, 0x1c, 0x00, 0x00, 0x00,
    0xa0, 0xff, 0xff, 0xff, 0x0e, 0x00, 0x00, 0x00,
    0x61, 0x72, 0x69, 0x74, 0x68, 0x2e, 0x63, 0x6f,
    0x6e, 0x73, 0x74, 0x61, 0x6e, 0x74, 0x00, 0x00,
    0x01, 0x00, 0x00, 0x00, 0x10, 0x00, 0x00, 0x00,
    0x00, 0x00, 0x16, 0x00, 0x1c, 0x00, 0x18, 0x00,
    0x00, 0x00, 0x14, 0x00, 0x10, 0x00, 0x0c, 0x00,
    0x00, 0x00, 0x00, 0x00, 0x08, 0x00, 0x07, 0x00,
    0x16, 0x00, 0x00, 0x00, 0x00, 0x00, 0x00, 0x01,
    0x14, 0x00, 0x00, 0x00, 0x20, 0x00, 0x00, 0x00,
    0x20, 0x00, 0x00, 0x00, 0x01, 0x00, 0x00, 0x00,
    0x3c, 0x00, 0x00, 0x00, 0x02, 0x00, 0x00, 0x00,
    0xff, 0xff, 0xff, 0xff, 0x01, 0x00, 0x00, 0x00,
    0x04, 0x00, 0x04, 0x00, 0x04, 0x00, 0x00, 0x00,
    0x1e, 0x00, 0x00, 0x00, 0x73, 0x65, 0x72, 0x76,
    0x69, 0x6e, 0x67, 0x5f, 0x64, 0x65, 0x66, 0x61,
    0x75, 0x6c, 0x74, 0x5f, 0x6b, 0x65, 0x72, 0x61,
    0x73, 0x5f, 0x74, 0x65, 0x6e, 0x73, 0x6f, 0x72,
    0x3a, 0x30, 0x00, 0x00, 0x02, 0x00, 0x00, 0x00,
    0x01, 0x00, 0x00, 0x00, 0x01, 0x00, 0x00, 0x00,
    0x01, 0x00, 0x00, 0x00, 0x10, 0x00, 0x00, 0x00,
    0x0c, 0x00, 0x0c, 0x00, 0x0b, 0x00, 0x00, 0x00,
    0x00, 0x00, 0x04, 0x00, 0x0c, 0x00, 0x00, 0x00,
    0x09, 0x00, 0x00, 0x00, 0x00, 0x00, 0x00, 0x09
};

#endif // SINE_MODEL_H